F2
F2
EA
7F
E2
C7
10
14
64
24
BD
0D
03
D4
C6
F6
25
09
D4
0B
55
EE
FE
21
34
1A
CB
F6
21
EA
AB
1D
07
97
D4
FA
31
0A
B6
1E
0F
0C
CC
35
CB
D5
21
2D
5B
05
00
F7
04
06
00
FC
F4
F5
00
04
AB
0C
09
B6
CA
F0
1D
0A
8E
0E
4E
FC
FF
1D
28
10
C9
F2
20
F0
EE
FA
07
0B
E7
FF
FC
FF
80
E4
2B
C4
AE
06
D3
26
7F
16
D2
38
46
04
38
E3
03
ED
